/**
  ******************************************************************************
  * @file    network_data_params.c
  * @author  AST Embedded Analytics Research Platform
  * @date    Sun Oct  8 20:16:52 2023
  * @brief   AI Tool Automatic Code Generator for Embedded NN computing
  ******************************************************************************
  * Copyright (c) 2023 STMicroelectronics.
  * All rights reserved.
  *
  * This software is licensed under terms that can be found in the LICENSE file
  * in the root directory of this software component.
  * If no LICENSE file comes with this software, it is provided AS-IS.
  ******************************************************************************
  */

#include "network_data_params.h"


/**  Activations Section  ****************************************************/
ai_handle g_network_activations_table[1 + 2] = {
  AI_HANDLE_PTR(AI_MAGIC_MARKER),
  AI_HANDLE_PTR(NULL),
  AI_HANDLE_PTR(AI_MAGIC_MARKER),
};




/**  Weights Section  ********************************************************/
AI_ALIGNED(32)
const ai_u64 s_network_weights_array_u64[676] = {
  0xc0c086f3bfa9e8f8U, 0x4044195bc04a0964U, 0x40c54dfa407b0389U, 0xc0b134644098cb03U,
  0x3fe3fb0fc001d6ebU, 0xbe4c612cbdc52b90U, 0xbeb954f8bf17ec8cU, 0xbee81277bf99d235U,
  0xbe4e40673ed858abU, 0x3edb6f843f3373d8U, 0x3e9e7b013e9d887bU, 0xbe4493b4beafde61U,
  0xbebe82fabf0502abU, 0xbe2d1fbebe24bd4bU, 0xbc08c283be377182U, 0xbdcc2466beee87baU,
  0xbf038b42becd2ba2U, 0xbf2d9e64bf3e9660U, 0xbece5c02be9b2deeU, 0xbded31adbe3acc91U,
  0x3e16f4a33d5c4c34U, 0xbf1914fa3daf4e39U, 0x3e5dd984bd8108c9U, 0x3d24a6ccbf161006U,
  0xbf32c1033d864baaU, 0xbef835b93e020a42U, 0x3f96e8693c06d250U, 0xb8b8d0003f43bd44U,
  0x3f59957c3ed4a300U, 0x3e558487bfac1213U, 0x3b9eeb46be9410c9U, 0xbca15df2bebabfb8U,
  0x3f8252d9be3098c5U, 0x3ee32467befe6194U, 0x3f0396bfbf856ffcU, 0xbf3a15a93f185928U,
  0x3f6e93b5bf5ebd85U, 0xbdd52fd73ebb2964U, 0xba942c6abfadaeb3U, 0xbd1c02bdbf1dcf98U,
  0xbeb9292fbf4ba6ccU, 0xbf28947b3d7875fbU, 0x3dd46bcfbf35d0b1U, 0x3eba4753bed1baf4U,
  0x3f344761bf43f9a3U, 0xbe41241240472faeU, 0xbf64b315bfce8766U, 0x3fc8a3a03fcad08fU,
  0xc039a6cfbfd4adbaU, 0x406f310c3efbea3fU, 0xbfda3248bf9f2880U, 0x40798d4fbfb83233U,
  0xbfc19d5b3dc0cecbU, 0x3f8b727abe3e277fU, 0xbfbc52113e184f0fU, 0x3e682aa73f25d123U,
  0xbf68b2723ed21704U, 0x3f6e37973f6addbcU, 0x3f0311ca3f31e485U, 0x3fbe799c3fc840c4U,
  0xbe1bbd2ebf8f5735U, 0xc0126d63402854dbU, 0xbe6a47193de8079bU, 0xc00fb9e3bf23301fU,
  0xbf36b3e13e18f9a0U, 0x3fda29a43f1c18b6U, 0x4012ee11b94e3accU, 0x3fecf33dc0232da0U,
  0x3f436220bfc19976U, 0xbf1af6d73f1fc257U, 0xbf01b85cbf951a27U, 0xbf6aa313bf20fb70U,
  0xbe684b2bbf1b7f2dU, 0x3f308df23c0dfc02U, 0x3eae1200bee0f5c1U, 0x3f1cd37fbdf8ecc7U,
  0x3e5c7acebfcc8a1aU, 0x3f9c698640060170U, 0x3da77388bfb95187U, 0xbf3eddc6bf402e1aU,
  0xbf3c3d1dbf3d8d71U, 0xbf399c74bf3ac68dU, 0xbf36fbcbbf384c1fU, 0xbf345b22bf35ab76U,
  0xbf31ba79bf330acdU, 0xbf2f19d0bf306a24U, 0xbf2c7927bf2dc97bU, 0xbf29d87ebf2b28d2U,
  0xbf2737d5bf288829U, 0xbf24972cbf268d69U, 0xbf21f683bf2346d7U, 0xbf1edc69bf20a62eU,
  0xbf1c160dbf1e0585U, 0xbf1a1488bf1acddeU, 0xbf174db4bf1953adU, 0xbf14d336bf16becbU,
  0xbf12328dbf1375a2U, 0xbf0f6cecbf1131fbU, 0xbf0d6ea8bf0e7417U, 0xbf0a73f1bf0c3798U,
  0xbf07a38ebf08c237U, 0xbf050f40bf065f95U, 0xbf026e97bf0320d9U, 0xbefeb842bf014e68U,
  0xbefa5c7bbefcc8c2U, 0xbef539c5bef7b9e1U, 0xbeef97afbef2decbU, 0xbeea9695beed373eU,
  0xbee6bfacbee8f09fU, 0xbedf3a80bee1fc17U, 0xbedb6e25bede96d0U, 0xbed4fd79bed86cd8U,
  0xbed04217bed31c83U, 0xbecafbb0becc7584U, 0xbec6afafbec9a305U, 0xbec02690bec2d0f5U,
  0xbebb5f0ebebe74edU, 0xbeb53f38beb82626U, 0xbeb0fffdbeb47c36U, 0xbeab6ad8beade3b5U,
  0xbea6a961bea8b7bfU, 0xbea155d0bea3e2d6U, 0xbe9bd882be9eb9b0U, 0xbe969fcfbe991389U,
  0xbe91bc55be93ed56U, 0xbe8cc76ebe8f0a5dU, 0xbe86191cbe89dfeeU, 0xbe814275be840858U,
  0xbe78b09ebe7d85d8U, 0xbe6ccf16be714b8eU, 0xbe635396be687534U, 0xbe59265fbe5eb84cU,
  0xbe4e7e31be53cb9dU, 0xbe43fc77be48891eU, 0xbe38dd07be3e52c3U, 0xbe2ce72fbe346eeeU,
  0xbe235247be279acfU, 0xbe19babfbe1ddc8bU, 0xbe0ed324be14c09cU, 0xbe034e26be0799c0U,
  0xbdf4cb9cbdfd1cafU, 0xbddd4205bdeb313eU, 0xbdc94d1fbdd37bbdU, 0xbdb61fb0bdc04604U,
  0xbda09360bdab2a4cU, 0xbd8c54a1bd95a031U, 0xbd6e0d39bd824c75U, 0xbd459511bd59a2eaU,
  0xbd179388bd2efebbU, 0xbcdde188bd04f4acU, 0xbc858a03bcb51222U, 0xbbd4cd69bc3b1030U,
  0x3b7c9813ba6c616bU, 0x3c7aabce3c1f8c6eU, 0x3ccbbbe73ca3d714U, 0x3d0f764c3cf6e398U,
  0x3d3996953d27af2bU, 0x3d5fefb23d4bee49U, 0x3d86d6b93d7647f5U, 0x3d999d683d904682U,
  0x3db020113da455f7U, 0x3dc47e4a3dbb212aU, 0x3dda569e3dcebcecU, 0x3deebfed3de54babU,
  0x3e018c583df91e68U, 0x3e0c1cd43e07ab2cU, 0x3e1746843e122fd2U, 0x3e21e84c3e1c69e7U,
  0x3e2c18f03e264f9cU, 0x3e34f2f03e3075e0U, 0x3e413a3b3e3b81bdU, 0x3e4b5d393e4682a4U,
  0x3e5541b83e50634cU, 0x3e5f67223e5a917fU, 0x3e69873c3e63b522U, 0x3e768b6c3e7075ccU,
  0x3e80fd603e7c5641U, 0x3e8556723e82e986U, 0x3e8a9a063e87a02aU, 0x3e8fcb7a3e8c99dfU,
  0x3e9518ec3e925297U, 0x3e99c6233e975d30U, 0x3e9f9dc13e9cc0d7U, 0x3ea4b2413ea22d02U,
  0x3ea9b7363ea7beb5U, 0x3eafa2ad3eac5c23U, 0x3eb471d93eb23112U, 0x3eb9f2a33eb7a7ebU,
  0x3ebed1c03ebcdd25U, 0x3ec56cd13ec17098U, 0x3ec940133ec66d12U, 0x3eced84f3ecc236fU,
  0x3ed3a13e3ed178f8U, 0x3ed95af33ed6ba4aU, 0x3ede18af3edbfb9cU, 0x3ee3dd973ee233f4U,
  0x3ee9463e3ee67e40U, 0x3eee603a3eebbf92U, 0x3ef3a18c3ef0ea13U, 0x3ef848d83ef64235U,
  0x3efe24303efb8387U, 0x3f01b2c13f00626dU, 0x3f04536a3f030316U, 0x3f06f4133f05a3bfU,
  0x3f0994bc3f084468U, 0x3f0c35653f0ae511U, 0x3f0ed60e3f0d85baU, 0x9a54955f9596959dU,
  0x9898856a99948f9eU, 0x8d74a4a0888791a8U, 0x75698869a79a7a58U, 0x9e97965987709e9cU,
  0x93929698897f9f6cU, 0x7a6a8c829da28988U, 0x99a0817c868c9e9aU, 0x857ea4a1797d8d97U,
  0x8167885baf9e7b66U, 0x9e9e889b9185afa6U, 0x8784979d9a74a783U, 0x89729879979e977bU,
  0x9d98776e8a77a59dU, 0x6889a3956279857dU, 0x7b5f7491a6a76974U, 0xa49d9f60846caba7U,
  0xac5c929f9442b450U, 0x7372a4848ead9d64U, 0xa0a27079789e9c98U, 0x7565a99579b56d9cU,
  0x9976ae5ca6949380U, 0x9cab93509e609ea4U, 0x6fb2a1ab6b529478U, 0x84ba5dbb9bab70aeU,
  0x9f93a1a788a0929eU, 0xc1609b8ca230b55aU, 0x5e40bf569c969900U, 0xa3bc3b8b5fbba3b7U,
  0x4cbab3a249c93cd8U, 0xd2799654a18f86a3U, 0x9885d42af13a9d90U, 0xb88989a4b204e732U,
  0x33a963a393b6673cU, 0xc5a347a125adb1c7U, 0x9f81a9aa949b3d96U, 0xc23ad1638f87b743U,
  0x96a2ac4bd95a8c95U, 0x8683929f8973ad93U, 0x5d8d70a19aa670a0U, 0xac9e77595fb9aba4U,
  0x9c6da29095748a8eU, 0xab95a6a9969f954aU, 0x9c97b895b0668f9fU, 0xb03f989da94ec871U,
  0x726baf848d96924fU, 0x99a76f8a739d9da5U, 0x86a59b967b8d68a9U, 0xbe70b8449b959d89U,
  0x9498c44dd93f9889U, 0xb3808b9aad5ad662U, 0x819379ae949e756fU, 0x979682a48ab08f9aU,
  0xb27d9a969e9f868bU, 0xb354c5739e90a751U, 0x91979e93bb6f998eU, 0x87bd849c8aa0a3adU,
  0x8bc689aebbb67fc0U, 0xaab09eb086abb0acU, 0x929f9eb688baa790U, 0x77aa7eb798bf80b4U,
  0xbcc06ab36eb8abc3U, 0x69b6b9bf79bf62caU, 0x9abd8ab5a4b687c9U, 0x9cb8a3bc94aeacb4U,
  0x88af97c589a9a59bU, 0x5ed570c2a4c165c0U, 0xb3be62ba62b8b4c0U, 0x82a4b3ad77bc6ab7U,
  0xa4ba938aa4aba5b9U, 0x8fbb9cb9a4b29baeU, 0x71c39cc278b79e95U, 0x5ac058b9afb968c9U,
  0xabc079b158b2b6c1U, 0x959ebdb08bc773bbU, 0x9daf98b3aeb69bc7U, 0xa4cc81c09d9892b1U,
  0x72baabbf83bc7eb4U, 0x71bd64c2b0bc6cceU, 0xabc07cc563bfb4c6U, 0x88abb1af8abf6fb6U,
  0x85b692a994b78ecbU, 0xa9b186a882ae9db1U, 0x7cb9a8bf85b37fbbU, 0x87c972c8b0ba84c0U,
  0xb9b58ccb7bb3a6b5U, 0x96ae9eaf8da390a4U, 0x86ae8aab9eb09197U, 0xa2b674bc78a4a1c9U,
  0x7abba4ae80b970b7U, 0x86c772ab9abf7eb8U, 0x95ad97ce80c3a2b7U, 0x7e9ea7ae8aa093a2U,
  0x63c768c1a8bd7597U, 0xa5aa78ca68c19dc4U, 0x71acb4ac82cc81b4U, 0xa0c091b2a1b48ab1U,
  0xa4b98d999ea7ab9eU, 0x76a79fc772a080aeU, 0x77c960bbaabb65b4U, 0xb7b47cde73c2b6b7U,
  0x8e9aa7aa94a177a2U, 0x90bda2ada8a79fb7U, 0xacb689a7a1a793b0U, 0x6fbcaabe71ca849cU,
  0x75b66eb4b7b66fc0U, 0xb2ab81c871b5aab3U, 0x95a3949c9cb36db7U, 0x92a492949fae91a7U,
  0xaeb17cb992c69eafU, 0x6ab29dbc7bbe7ca2U, 0x90b379a39bb681b7U, 0x97a995b777929db4U,
  0x9fac98a9a394969eU, 0x9474a378aeba9579U, 0xb7bf8f7f9688b9b9U, 0x998aacc19b66a083U,
  0x98819987bfb18f78U, 0xb8b88f849681c1c4U, 0x9b89b8b68c7a9776U, 0x95899179bcd38376U,
  0xa7b992759372ccc7U, 0x9e7db7cb957d9b7dU, 0x957f9a78c0b39465U, 0xc0c38b7b9a83c7c6U,
  0x9283afb08b7ea285U, 0x8e8e9488bac98778U, 0xc8d090779796b7ccU, 0x9581b4be977f938bU,
  0x936e9982b5ba9182U, 0xacb6945b9b76bdb2U, 0xa178b3cf8e7f9186U, 0x947ea28acbd28b77U,
  0xb7c992749e83b2c9U, 0xa286c4c1948d9f84U, 0x8d7f9d92b6c7917eU, 0xcaa88c719585cdbdU,
  0x9777b2d0887ca068U, 0x897f9789b0bf9088U, 0xcaba89789c86cac1U, 0x9883c5ce89759b7fU,
  0x9c7ca689bab9997fU, 0xb9b68a7ca58bb6b9U, 0x9978b9c6977e9c84U, 0x8f8e917fbfc99273U,
  0xbab78c81a177bec5U, 0x9b8cbbc193769d74U, 0x966e9d83bdba8c6eU, 0xbaca8b7d917dccb6U,
  0x988aabca97799a8cU, 0x8b889c85c5c38d7fU, 0xc7c389979683b6baU, 0x9b82c1cd907c9d95U,
  0x956a9f7cb6bf8e71U, 0xc2c88f659a7ebab3U, 0x9a78aac29769ad80U, 0x9172977cb8bc8a6aU,
  0xb9cf9080a480bbb3U, 0x9b7fcbc78d77a188U, 0x92759880baba917bU, 0xa3b095699883cdc0U,
  0xaa7dc0b39e71a283U, 0x9369a178b9c0976aU, 0xb7bc977b9f70a5b0U, 0xa37eabb49978a286U,
  0x9078aa7bacac9566U, 0xb3ba996ca088bdc5U, 0x9978a9b696769f76U, 0x9a7c9974b2b69373U,
  0xa7b79a719b6ea4afU, 0xa66fb0bb9586af81U, 0x72b07f949eb57ca7U, 0xa4a780b069b09fafU,
  0x88c0a1a587a57ab5U, 0xa9ae909da4a091cbU, 0x8aa2a38da9759799U, 0x96a995b3956cb090U,
  0x5bba60aa9fc16ebdU, 0xb1b862cc5abcacbfU, 0x9aa2a39699d664c3U, 0xcb82b8618f97b7a2U,
  0x8aa6a39bc68884a3U, 0x7dbb8bc272849d8cU, 0x58d233b6b0c350beU, 0xbcae70d153bcb7baU,
  0xa774a4899cb96cb7U, 0xc374d880849ed19eU, 0x85ae8ea4c4888d9eU, 0x71b799be6cbe8ebfU,
  0x67c35caabfc547c4U, 0xac9e7fb15da5b7b7U, 0xb5ae9995a9a58882U, 0xa7a8bc968e9ec09bU,
  0x91ab93979a947f9dU, 0x62a891c166af95a2U, 0x5fac74b8b6b66b8fU, 0x91a69c945f99bfa1U,
  0x948f9a9c9cc09095U, 0x92a7a8b791a4a1b0U, 0x86b68ba08d9e90a9U, 0x67a891a773b482a4U,
  0x86d081aea9a877b1U, 0x9db281b78eb199a5U, 0x7db99ab78a888f98U, 0x8bae8c9fa7ae89baU,
  0x84a890bd7f98989aU, 0x8d9a929793bd89b2U, 0x9f829b9091a2a3c6U, 0x9ab57c94a186959cU,
  0x6fafa7c3719876a4U, 0x86ab57acaca766d4U, 0x969fa0c27ea0a39fU, 0xb99f919cb1b39ba6U,
  0x8ca7b5619390b197U, 0xa1c96a8d89a792aeU, 0x4bc8afb951b36bcaU, 0x959c5ebbb4ad68c8U,
  0x889cb8a89599a8a5U, 0xb7848799b8739c8cU, 0x818da29f93989d7cU, 0xaeb952ba7eb89ab4U,
  0x50beafc065cc55b2U, 0x8d9988a6b3a68ab5U, 0x8a8eaa858d8d9ba8U, 0xa2908f96a69aa899U,
  0x6798759195a688abU, 0xb4b76ebb6e9b9cb0U, 0x739baaa372b86eb8U, 0x85c17fbcaca487cbU,
  0xa9b87ad48ebdacaeU, 0x69c299b086c77db3U, 0x8fd382b59eb390d3U, 0xa5b98acd83c3aabaU,
  0x83cda3b387d87bc3U, 0x81df6fd59db18ccfU, 0xabac81e07cc69cb9U, 0x7cdbafaf82cd75c4U,
  0x8fe384cfa7ba84d4U, 0xb8b189d57bcfaaa5U, 0x84c5a0b58ad084c6U, 0x86d87dcd9eb17cc2U,
  0xaaad83c582bf9eb1U, 0x7fc5a5bd89d76eccU, 0x86df7ec2a1b085daU, 0xb1af89d87dd2a0afU,
  0x7db0a1b287d381ceU, 0x8acc78cda3b588ceU, 0xa1b68bc57ad5adbcU, 0x74cc9eaf7bcf88c6U,
  0x89dd7bd4afb080c1U, 0xb1b185ce88c7b3bfU, 0x8cbda1b494c27dc0U, 0x91be6ec59fab7ed9U,
  0xa6b084d881cda2b2U, 0x73cbb2b687d87ec9U, 0x83d36bbda7b97edbU, 0xaaaa88de78c2abaaU,
  0x7abaaeb784de7ed0U, 0x7ed58ac09bb091c8U, 0xb0a989cc76c2a8b2U, 0x7dc9acb081c678c7U,
  0x77d878d4afad7fd9U, 0xabb080b86cb6a7b3U, 0x78c699af82e07dc6U, 0x8fd57ec7a0b68ad0U,
  0xa6af8dd683cfa3bdU, 0x80ba99b280eb7fccU, 0x75d86fb5a4ba7bcbU, 0xabb480cb78c8a7bcU,
  0x6fcda6ad85d576c2U, 0x81c97ab4a5b081ceU, 0xa2b089dc79ccb0abU, 0x81bda5af85c97fd5U,
  0x78d275d09db576d7U, 0xafb57acd6bc4b6b5U, 0x6ec2a3b87cde74c8U, 0x8adf7ace9fb48aeeU,
  0xa8ae84be78b4a6b5U, 0x6dbda1a87fd57fc3U, 0x78eb6cd89cb276deU, 0xb0ae7dcd70c8a7b1U,
  0x76baa7a589cf68baU, 0x8acc87c0aaac87cfU, 0x9aa48ec48aad98adU, 0x7bc099af84c786c4U,
  0x788096729b989367U, 0xa7988762797f9ea2U, 0xa24ba9a284379a74U, 0x9475aa5ea49f8c46U,
  0x989a8c72a2669d9cU, 0x8c989d9f7e759970U, 0x83679d64ab958862U, 0xa29d876a9050ac9dU,
  0xaf45a8a69742b03cU, 0x886fa0769ca28d40U, 0xa39c85658b8899a4U, 0x9e61a3999b6a8574U,
  0x8e57a27aa399867cU, 0xa69f9451ac4fa4a2U, 0xaf71a4a3914bae6aU, 0x8e4f9777a5a58a43U,
  0xa799776f9e769ba3U, 0x8a939ba2877c8a88U, 0xa05d916ea5958088U, 0xab919628c22ea59aU,
  0xa6799bac8420b744U, 0x5d838087a9af687eU, 0xab937ba65189acaeU, 0xa158a08e93748e69U,
  0xbd27dd29a39eca36U, 0x9fa27b31cd4c9f9fU, 0x578f9fb653308c61U, 0x81885380b1ad4298U,
  0xa791a8877875a59aU, 0xe344958ccb35c247U, 0x9231cb359996ba1bU, 0xa5bb586ab288949fU,
  0x4892b9a73e8c7198U, 0xa0676b73b0a05c9eU, 0x9985b868ad5b9f92U, 0xdc41979dc54bd43fU,
  0x7636ad6d94a1a135U, 0xb0b260bc866da3a5U, 0x657caaa35e956a7fU, 0xa9517d75af967d6eU,
  0xa39eb443aa499698U, 0xd46ea19aaf5dcc60U, 0x8a4dae73a2a69374U, 0x99a4717c926d9a9eU,
  0x8492a6a8766b7b7dU, 0x8f538679a2a07374U, 0x9f8ea35aab71a297U, 0xb3739a989a26a552U,
  0x8456a66a99a58532U, 0x9b9e6b94966592aaU, 0x8d809a9c81499487U, 0x9e66a865a1979127U,
  0x9ea0a146ad58a393U, 0xac769a999355ac5aU, 0x83869e8692a28487U, 0x979f954a948b93a4U,
  0xac539d9f8e76a15eU, 0x8e8a96709fa0907aU, 0x949b9c5d93759a9dU, 0x99969b949359a87aU,
  0x86947797959a8075U, 0xa1978ea0a3a69a90U, 0xae6aa29798718e89U, 0xa35fb46da09aa74dU,
  0x8a93924cb4749b9bU, 0x8fa18fa480809d8cU, 0x97828d92a4998489U, 0x9ca79a7495749e8cU,
  0xa546a99b9754ad88U, 0x8b66a1949a9d973eU, 0x8e9f967e878c9392U, 0x969d95a78db99280U,
  0x947c9a8895a199a2U, 0x9da39264a747a48fU, 0x9d7ea99e8a8ca48fU, 0x8c7ca6829b918e63U,
  0x94a28693967e97a0U, 0x8e6e9a908d97947bU, 0xa18a9c9393928c94U, 0xa795a663a5609998U,
  0xb183a2ab8a71b45cU, 0x6681848f96ac7589U, 0xa0b15f996582a5a5U, 0x8b9f9e9783aa69acU,
  0xcf57d1509490ba95U, 0x9596991ce85b9891U, 0x73b29bbe6333ae54U, 0x29be3bc0b4bd30a1U,
  0xad98859a2496c0b5U, 0xc522a183baa38a8fU, 0xca2bff1f8d8dd645U, 0x8fc57135dd409f98U,
  0x22c1a5c32b9a75b7U, 0x54a514a0c7bc1ec8U, 0xa67fb5706294bd97U, 0xdf469792cb36c44cU,
  0x895acd818d95c119U, 0x9cb168a88e9493aeU, 0x5aa3aaa8409265a8U, 0x88726895b19e5898U,
  0x9f969d689573aa9aU, 0xa6799c9a9b62a870U, 0x8e8fac6b989c9e79U, 0x90ad85669093919fU,
  0x7f72aaa16d5c939eU, 0x7566747c9fa17287U, 0xa19c828a7d96a4a7U, 0xa152a4938e75967aU,
  0x8a54ab5a999c9b5fU, 0x8fa483779c789fa2U, 0x86ae8fad777894aeU, 0x8182786d9f977292U,
  0xaf9d916a8c6e9fa0U, 0xa082b2998c69a465U, 0x8f86937bcab38d8dU, 0xbdb8957d9c80c1c3U,
  0xa177bfbb8874997aU, 0x8d789e7aa7c48d6fU, 0xc0c89768a583acaeU, 0x9f82bdc58b73a177U,
  0x8f739e88b3b79072U, 0xc9be99829c93adc2U, 0x9272bab385749585U, 0x94769d87bfce8e80U,
  0xc1ba9d82a27cb4aeU, 0x9e62cbca94709a89U, 0x8c6ca785bbb89572U, 0xa3a990859a6cb8b4U,
  0x9d83b9be89829a71U, 0x8d829381bdc4976cU, 0xd4ce866f9890bfccU, 0x8d84c8b98b889993U,
  0x8c7e8f8bc2bb9c75U, 0xbbc18b7d9476cebdU, 0x9382b0ac8a829974U, 0x8c869491caab8e6bU,
  0xc4d695719869bbd7U, 0x9497c3bd98759b7cU, 0x8a77988eb9c89085U, 0xa5bf9a769377aeb3U,
  0x9c85b1b292879491U, 0x9a6c9b90c1c78977U, 0xc2d09377a47ebdc0U, 0xa07dc0c58a7c9a9dU,
  0x8a85a677bbb48f79U, 0xc7cf9a959d81c6c7U, 0x937acac397739a8bU, 0x837f9487b1cf918eU,
  0xb9bb95849a82b2d1U, 0x987bbcbe86819a7eU, 0x947c947db6d0986bU, 0xb7bc94729889b7caU,
  0x9c78b2ba93859c80U, 0x8e849b83c6b88e74U, 0xbfc198879d8ac1c0U, 0xad87c8ae93779c89U,
  0x9a679d7fb8b39778U, 0xbeb98b669a7bc0c8U, 0xa073b3b4976fa17cU, 0x9a7a9b76afa89868U,
  0xc1c19866a382a2bbU, 0x998fa5c2907ea57eU, 0x8e739c7db4b29471U, 0xcaae8c82968cc1cdU,
  0xa279b3ae8e7ba07aU, 0x9e6e9e81b5b79668U, 0xaea29466a2899ea0U, 0xa27fa2ad936ba977U,
  0x917cb17fa5ad9971U, 0xb7b29074ad779ec3U, 0x9e79a2aa9977a287U, 0xbe3df556bef803b3U,
  0xbe8b81323eaf4e9aU, 0xbf1c5f22be0dd248U, 0x3ea93577bef62421U, 0x3ea4e23abf0490afU,
  0xbe9927b93f1e64bdU, 0xbf763e6fbdd12599U, 0x3f11257cbf451e23U, 0x3f816b543e7014cbU,
  0x3e99d7b0be08b31fU, 0xbe2448ec3f39c1dbU, 0xbe0b1b2dbd6202d6U, 0x3e9726dbbe9726deU,
};


ai_handle g_network_weights_table[1 + 2] = {
  AI_HANDLE_PTR(AI_MAGIC_MARKER),
  AI_HANDLE_PTR(s_network_weights_array_u64),
  AI_HANDLE_PTR(AI_MAGIC_MARKER),
};

